<PAD>
<UNK>
<CLS>
<SEP>
<MASK>
"
#
$
%
&
'
(
)
*
+
,
-
.
/
0
1
2
3
4
5
6
7
8
9
:
;
<
=
>
?
[
]
_
a
b
c
d
e
f
g
h
i
j
k
l
m
n
o
p
q
r
s
t
u
v
w
x
y
z
##e
##t
##r
##g
##n
##c
##i
##s
##l
##y
##9
##4
##3
##6
##d
##5
##b
##a
##o
##p
##2
##v
##h
##m
##u
##k
##1
##0
##f
##7
##z
##q
##x
##w
##8
##j
##ti
th
##en
##on
##er
the
##in
##ed
##es
in
of
##al
##tion
an
##or
##at
##an
##ro
##is
##as
##it
##ation
##ic
##ar
and
##el
##ent
##ut
##om
##ec
##os
##re
##ing
##ly
##us
mut
to
##et
##ith
gen
with
mutation
##ul
##ot
##ati
##rom
##ve
##le
re
gene
##id
al
##il
##am
##enc
##oc
##ol
##ac
for
de
pro
is
ex
##ere
##ur
##ect
ch
##ph
##un
##ys
##ated
##ase
that
##ri
as
##yp
con
mutations
##uc
dis
was
##ter
on
ha
##od
##fic
##um
##ents
pati
##si
##ts
##ran
##th
##pl
##em
##ous
##se
at
##res
be
se
##ia
su
res
st
by
##ig
##ow
##di
fam
##op
we
##tic
patients
wh
##ity
##ir
were
##orm
##ate
com
##og
##qu
##te
##ain
##ff
##ine
##tin
this
ac
from
all
##tr
##ant
ph
##ge
##vel
can
##ele
##ell
##na
##ence
##ers
ma
##osom
##oun
##por
##fici
##nd
##ies
or
##iz
have
##den
cl
##otyp
tran
##ency
ap
##ical
anal
##tein
##ver
##ormal
dise
##ion
famil
defici
##zy
exp
##bs
tw
trans
ne
##erm
##ich
##im
rec
##tro
these
disease
po
##ected
loc
sh
##vid
##ast
iden
sy
##ound
chrom
le
##ular
are
analys
lin
##ted
ca
##ment
chromosom
protein
##ding
resul
reg
##ari
two
##ab
##ca
ass
identi
##her
canc
br
##ting
am
car
##ons
cell
deficiency
comp
found
en
det
##fi
phen
which
##yl
link
##eletion
families
deletion
analysis
hum
dm
ad
normal
##sion
##fied
##ther
human
sp
##ore
##ndrom
stu
##otype
syndrom
cancer
##ges
inc
##oci
##pe
no
poly
been
##zyg
not
##ozyg
im
##tiv
region
un
##age
##st
pre
associ
syndrome
dys
##ved
##gen
##troph
brca
di
##ations
##osis
expres
chromosome
##de
one
caus
##ap
##igh
##unc
show
sequ
##ce
fr
##plic
##oth
##ual
##eter
bet
pres
heter
##ily
has
##ad
##red
family
identified
##cri
##ism
brca1
##ib
##ific
ab
dna
##ip
##ose
sug
##ree
hom
aff
sugges
##pd
exon
associated
##tor
repor
##trophy
typ
##arac
us
##ally
cons
bre
##lu
##ative
##ogen
##arian
##ost
##and
genetic
ar
par
activ
##our
col
##ffer
g6
##ong
##ases
##ary
##ath
##ign
##vi
##ild
results
##iss
##duc
def
g6pd
pa
##iti
##olog
##ord
##aracter
clin
pl
per
character
but
both
##unction
##ely
##ucle
differ
sit
clinical
tum
##ish
sc
other
##so
##yt
##bl
##ized
three
##if
indi
des
sub
polym
##ess
##ozygous
##ug
dom
##vidual
##ble
individual
expression
locus
##atic
may
oc
##ial
also
carri
##we
mar
inv
allele
studi
breast
##ure
##erved
he
pos
##ased
##ility
mol
mus
##ue
affected
met
##ulation
patient
cod
##gn
##orph
molec
##rel
##ater
level
dystrophy
had
resp
##ch
##ense
repe
phenotype
disord
cells
##end
##ects
function
sev
betwe
mark
between
mal
inter
##inding
rel
splic
##ution
##ently
linked
linkage
musc
obs
mutant
activity
##tain
##sive
molecular
it
##vious
repeat
apc
present
co
##requ
high
ov
##form
##ws
type
frequ
hyp
##och
pop
##tive
map
##ugh
cd
##tit
non
##atin
previous
cases
polymorph
##dition
my
##ym
tumor
individuals
most
tr
##out
prob
##gin
allel
mic
##oma
##ag
##ay
comm
new
sign
##ermin
sequenc
10
##ren
ald
##ach
##velop
aut
gl
##bin
within
subs
comple
dia
fac
form
15
four
##esis
spec
ovarian
##cur
##osph
develop
##zym
som
cor
nucle
##dro
common
##oti
##dy
##uro
##ouse
str
genes
dem
##ating
germ
more
wil
##val
study
observed
mouse
##ection
incre
gro
##normal
intr
##ata
acid
##able
11
##pr
##osomal
##crib
miss
than
##onic
hapl
##ydro
##up
abnormal
occur
hem
##13
there
only
vari
##ole
##int
##ist
##ited
detected
disorder
our
missense
pred
produc
##port
enc
enzym
using
sam
##uld
inclu
novel
sequence
##all
##onstr
##ogene
diagn
sing
phosph
demonstr
single
##xim
##ization
ori
##br
##emb
addition
##crip
evid
ye
##pres
##edit
app
site
me
##ond
##ocyt
sup
previously
ser
##ates
her
mod
inf
polymorphism
##dic
##tern
different
##isk
##uch
reported
describ
und
##ep
##ive
##ight
##ition
deletions
levels
14
bl
fe
studies
##atern
encod
gener
##amin
transcrip
dmd
##titution
man
##sible
specific
origin
li
inher
invol
alleles
evidence
eff
##est
indic
data
kin
si
##enti
population
ct
##ars
##vely
familial
mice
autosomal
acc
##ood
##ance
##veal
showed
characterized
12
ag
##ian
##set
##inant
##opro
report
c2
los
##ax
homozygous
severe
pr
genom
##act
onset
caused
loss
13
age
##ak
##ox
##fer
reveal
##uct
splice
hd
##emia
sever
##otide
low
memb
##line
##reen
es
fur
##ld
##bility
##ass
##elet
##own
##otypes
suggest
domain
respon
contain
int
##arly
clon
signific
bi
lym
##han
##essive
color
factor
lymph
##mun
##related
##ang
em
##uk
contro
substitution
enzyme
six
finding
his
provid
screen
cdna
el
fir
its
##tal
first
19
dx
##ra
##ough
##00
##ese
ins
##action
recom
amin
control
kn
##11
child
express
##ry
##cl
recessive
among
myot
af
their
retin
##plas
codon
genomic
significant
risk
##ever
exons
chan
seg
muscular
##aternal
recombin
how
##ulti
##ize
heterozygous
markers
germline
increased
##ocytes
amino
ev
five
sim
frequency
here
je
over
sk
##tri
##s1
##ack
conf
beta
dominant
meth
ir
##ple
##ult
lar
mr
sm
##cr
##cent
gluc
complement
##editary
described
revealed
however
gal
red
varian
##ten
##la
##q2
##asis
##ide
##rane
##cep
##oprotein
multi
##atur
chain
atm
result
immun
heterozyg
including
bec
cent
##tem
##obl
##ps
##pa
atax
##ities
inherited
##ne
isol
##tric
carriers
hereditary
variants
##po
##one
##fication
##emal
deficient
compar
unrelated
frag
subj
mapp
aden
femal
pcr
##jor
##ros
homolog
mrna
dir
end
pws
termin
##ectal
##plet
major
adren
defect
group
same
path
##sor
##yz
##da
##ature
alter
##rand
haplotype
appro
colorectal
abs
early
nor
##ile
##hydro
point
ampl
pah
diagnosis
myotonic
##ds
##ving
##ital
heterogene
findings
binding
ii
##ob
##tim
##ery
who
##genase
somatic
glucose
jap
##oly
##omat
expan
cause
development
further
##trib
direct
japan
sec
##ective
neuro
phenyl
used
carrier
male
simil
cat
fib
mild
##oid
##pos
##tig
anti
##ately
##reg
local
identification
large
tiss
##li
dehydro
##ystem
##emical
analyz
struct
intron
17
##t1
##pt
##hib
##otes
examin
recently
pax
trunc
18
pat
##pend
##ues
fram
position
correl
years
ctg
responsible
16
line
system
##ail
##posis
##fore
rem
studied
muscle
method
reduc
dehydrogenase
ob
well
##adi
##14
##ator
##ither
##pha
contr
sequencing
ataxia
hy
lip
##ard
where
##stab
##ochemical
##brid
##oblast
similar
fol
##ma
##erv
##edi
##omy
polyposis
demonstrated
expressed
analyzed
hybrid
kb
role
##low
##dred
##tical
nucleotide
predic
small
japanese
basis
fm
##ite
##are
##other
appe
variant
phosphate
subjects
##ould
##hk
##fe
##eng
##anine
##omas
alpha
transl
##genital
pattern
case
do
ret
##hl
transm
could
tumors
effect
cle
fat
les
sur
##rin
##ku
alth
##athy
proband
some
model
although
der
due
rna
##az
##roph
##ecti
##usion
complet
class
loci
determin
presence
coding
transcription
provide
du
each
##ric
##reat
##uria
shown
##formation
expansion
hpr
sus
##ty
##ton
anir
##idia
##ystrophy
##odystrophy
restric
##ological
peri
characteris
additional
serum
lik
several
##ukodystrophy
segreg
heterogeneity
aniridia
long
mec
vhl
##ms
##robl
##ether
transi
complex
abnormalities
iron
##omatous
##pendent
mechan
base
dec
ep
hfe
##ified
##estig
##asts
##lyc
suggests
pair
investig
##ential
inser
isolated
adenomatous
second
mechanism
mon
thus
##rough
##ental
disc
chromosomes
import
after
fibrobl
##ectively
20
eight
tes
use
##ces
##iqu
##tis
##enaz
prog
ashk
congenital
cancers
phenotyp
plas
seven
under
jew
approxim
ashkenaz
22
c5
cyt
duch
lod
very
##ii
##per
through
##enne
##ull
resulting
cardi
splicing
featur
into
##plasia
##pair
jewish
approximately
duchenne
features
hydro
hla
sel
##ct
##del
##otic
##par
##ves
##use
detection
##ochrom
kindred
confir
female
bp
based
fap
rare
##cin
##king
##activ
##urr
##ogn
hex
involved
known
##cepti
pax6
suscepti
plasma
spor
up
##md
##wth
##atosis
located
##ylase
suggesting
sequences
blood
kinase
members
screening
recombination
absence
follow
sporad
either
num
##27
##omal
genotype
repres
##idate
##rang
when
carcin
defects
functional
containing
remain
hprt
30
cere
##ta
##ber
##ading
##ens
##ulf
##idence
proteins
##abol
causing
partic
related
biochemical
examined
##oblastoma
restriction
sporadic
50
c7
hun
rb
size
wild
##enal
##eric
##arrang
##ulations
ref
brain
carry
respectively
##eptor
accoun
elect
galact
##ptom
complete
transition
fibroblasts
##ause
##ments
those
rearrang
##ural
cand
transfer
##ogenesis
perform
relati
populations
dxs
heterozygotes
because
insertion
ashkenazi
maternal
pku
radi
vw
##der
##oles
ext
##und
least
##itis
tumour
growth
confirm
susceptibility
25
av
old
##cess
##eration
##atal
##anti
##pher
resid
neg
break
metabol
marker
interval
repeats
highly
##istent
encodes
lymphocytes
phenotypic
dr
leng
nons
##av
##til
##ans
total
reaction
expl
association
##itive
males
hdl
##angi
##atory
duplic
characteristic
decre
candidate
length
euro
iv
medi
pri
test
treat
##gl
##ise
##aria
chromosomal
causes
consistent
sites
hep
therefore
diagnos
rearrangem
ele
fl
ox
out
such
tel
##iv
##idase
##ences
implic
part
plat
disorders
##tained
haplotypes
suppres
polymorphisms
indicate
compared
terminal
progres
hydrox
europe
val
any
without
syn
lead
compon
detect
impr
preval
conserved
##oleukodystrophy
appar
adrenoleukodystrophy
##activation
er
##ral
##ays
##h1
##ffici
##anc
##ants
##rans
dystroph
possible
hyper
hypoth
estim
changes
multiple
##olytic
number
vwf
platelet
lack
men
##ns
##des
##ores
##ute
order
nuclear
hemochrom
controls
##ique
##urrent
performed
27
glyc
ped
sout
ts
##cp
##ie
##sa
##16
##onor
##erase
induc
inhib
##alanine
##ocy
##terol
##sequ
should
analyses
adult
about
parti
plp
predis
manif
prad
mapped
phenylalanine
important
rb1
treatment
hemochromatosis
did
donor
put
paternal
vl
##rp
##clu
##oh
##over
##osa
frda
polymerase
support
mapping
contrast
determined
negative
pedig
c6
nd
sib
wt1
##ived
##oph
##12
dependent
choles
distin
phenotypes
occurred
##point
predicted
nonsense
prim
flan
suppressor
hydroxylase
tim
von
vit
##ins
##ort
combin
founder
product
demonstrate
encoding
significantly
tissues
correlation
transloc
imprin
00
28
cr
cet
dur
renal
ss
##ex
##95
##q11
thir
##ensi
##erin
instab
##amine
##olip
distrib
receptor
regul
##ology
##ucleotide
score
allelic
year
emerin
##raph
children
skin
amplified
whereas
probands
peripher
electroph
putative
cetp
instability
cop
cult
fin
##ling
##hood
##fl
##atase
##roc
##ured
##igment
clos
recogn
prem
##ification
##anded
arsa
coli
##ished
forms
strong
##ximal
unders
effects
histor
frame
methods
reduced
particular
hunting
oxid
dystrophin
tsd
sscp
cyp
d1
del
medit
pen
pend
sach
sulf
tay
wom
##gf
##p2
##fs
##82
##esh
ances
conformation
##ples
atp
strand
while
##ograph
apo
sym
marked
developed
will
willi
blot
membrane
central
fragment
derived
prader
vitro
mediter
sachs
29
21
less
main
tri
##tan
##ae
##pk
##ket
theta
inactivation
mutated
contrib
expanded
##ermine
##ably
determine
brca2
differences
acids
cloned
##ranean
structure
kindreds
##angiect
telangiect
distinct
during
mediterranean
cm
gd
mit
pot
##gro
##les
##fy
inde
another
##ench
deg
##unit
##porter
close
recurrent
##ylation
dysplasia
##ipp
consid
arg
defin
##ift
subunit
many
accum
retinoblastoma
alterations
tissue
hybridization
appear
cardiac
carrying
decreased
component
manifest
95
bro
coun
hig
lys
now
##ness
##cc
##land
##42
##ded
##ecting
##osity
process
##ucas
distal
leading
caucas
enti
incidence
impair
regions
frequent
polymorphic
clones
childhood
framesh
retard
bo
cre
fas
pur
varia
##trans
throm
##onuria
##ints
##asia
phys
##hern
##generation
types
parents
percent
clinically
phosphor
mef
infection
change
phenylket
lesion
southern
closely
premature
telangiectasia
thromb
phenylketonuria
23
c3
fail
##rich
##lif
##oplas
they
initi
##anth
##ott
##ill
wasp
resulted
dmpk
##genic
perox
occurr
general
again
prec
obtained
lipoprotein
relatives
hypothesis
predispos
flanking
symptom
consider
higher
caucasian
40
estab
ny
qu
sl
vis
yac
##nown
##pathy
##known
##elin
##omp
##ech
##rees
prost
proximal
extr
condition
##rance
stop
leuk
lines
##cad
identify
amn
##thern
span
unknown
homozyg
suggested
arm
argin
characterization
hear
hemolytic
severity
northern
structural
appears
does
fatty
lesch
likely
cereb
galactos
mening
vlcad
translocation
peroxis
establ
nyhan
gu
hal
mer
nine
pel
prom
rat
rfl
vws
xq2
##ram
##p13
##ven
##18
##7b
##zb
##iter
##sign
seen
##opathy
##izing
##ically
identical
defective
positive
formation
occurs
##eletal
jews
##olys
fmf
progressive
induced
peripheral
penet
entire
against
000
back
ery
hm
lim
pal
pigment
tf
##td
##ger
##bod
##pose
##23
##07
##ful
##erative
##ince
anomal
##ange
##arg
##amm
##ace
##acher
propos
exten
assign
##thers
allow
##izae
french
design
observ
presented
transcripts
afric
fragile
majority
truncated
transmis
metabolism
duplication
mediated
hepatic
sibling
third
women
frameshift
merzb
pelizae
eryth
merzbacher
pelizaeus
26
48
delet
ed
eth
mother
pd
wisk
##gs
##ning
##50
##af
##mic
ther
##onal
##alth
##ors
##its
##occ
prot
whether
##tral
apob
assay
##ologic
situ
health
relative
probe
aldrich
various
products
samples
suppor
describe
inherit
##clusion
retinal
##points
amplification
classical
segregation
represent
distribution
history
accumulation
retardation
prostate
wiskott
cy
c9
dam
ga
hist
if
mj
mld
mental
pds
rap
##cle
##22
##ud
##tide
##inc
##inucleotide
altern
exhib
##ritis
##therm
org
humans
spect
sperm
unique
##ochond
signal
sequenced
liver
involving
199
overl
skeletal
rearrangements
european
synth
prevalence
cholesterol
cultured
half
deleted
##ochondri
bac
eval
fing
op
sca
tech
##gether
##nas
##sin
##vated
##hip
together
##eth
mutational
##vement
alm
##encies
iso
conclu
having
##ellar
##ellular
##imal
probes
15q11
increase
mei
c282
furtherm
screened
recombinant
females
homologous
homologue
antibod
localized
like
carcinoma
confirmed
explain
estimated
mitochondri
penetrance
ethn
inheritance
damage
mjd
rapid
evalu
c282y
furthermore
44
60
et
mur
nbs
post
since
##r1
##bal
##bet
##pro
##ker
##arc
##osamin
##lying
##uss
##leb
requ
chr
##ability
adv
constr
carried
frequently
maps
indicating
lower
response
dxs1
event
events
termination
pathw
catarac
account
elevated
partial
potential
lesions
occurrence
symptoms
arginine
techn
murine
80
flu
late
nerv
##ner
##of
##k4
##10
##ome
##ream
death
##resp
before
transport
recent
##troduc
location
cag
americ
##stream
affecting
malign
corresp
willeb
##ogenetic
infanti
transcript
embr
fmr1
transferrin
diagnosed
##ocyte
time
cyp2
defined
mefv
transmission
finger
almost
willebrand
infantile
band
cos
cri
gas
led
mosa
null
pers
pep
sensi
would
##rl
##ration
##rum
##rup
##gel
##ium
##son
##ai
##24
##20
##enia
##ison
##ash
mutants
prote
propor
chin
##ode
##sions
being
sex
diseases
transporter
assess
##ationship
shows
typical
activation
ocrl
possi
relationship
micro
##1307
##aternally
indicated
altered
localization
investigated
tested
remaining
dxs7
characteristics
apparently
imprinting
huntington
pendred
backgro
spectrum
nervous
embry
mosaic
proportion
##1307k
24
bmd
fri
i1307k
min
mat
pe
range
##iel
##bor
##vir
##tid
##inemia
##ulated
##ilib
##olution
##ures
##rium
##quilib
disequilib
expected
cellular
compr
wilms
generations
factors
segment
mechanisms
tumours
atp7b
contribute
peroxisomal
siblings
organ
overlap
ethnic
disequilibrium
45
fusion
full
gt
ion
mg
pse
pren
sn
tc
una
##cer
##63
##53
##be
##25
##70
##onucle
them
##edre
##oresis
##ised
##arch
##ilit
chor
consequ
disrup
haem
maxim
transf
shar
short
##ogenic
##ateral
probably
facilit
##ocytop
fever
##entially
truncation
period
underlying
followed
radiation
breakpoints
##fficient
inhibit
pedigrees
ndp
oxidation
sulfate
markedly
manifestations
boy
physical
thrombocytop
galactosemia
mitochondrial
critical
friedre
pseud
friedreich
36
90
aro
ben
cg
cys
ge
lif
might
rate
tend
##vo
##ha
##man
##ude
##kh
##ft
##enin
information
introduc
##alian
##atus
##uster
##ote
##ock
prolif
concent
conclusion
##opic
##ogl
active
cluster
apoc
##verse
neur
##tivity
##apy
##ually
parent
encoded
generated
involvement
domains
contains
provides
comparison
translation
transmit
useful
avp
residual
leads
detectable
primary
impaired
alternative
conclude
pathway
background
prenatal
maximum
life
39
46
cp
d2
den
ec
ews
mo
rati
tight
util
wor
##medi
##15
##ties
though
##inal
inform
##aly
##ising
##ister
##uted
##utamine
##ominant
##etal
##otor
##ococc
##acellular
##ement
separ
white
##try
##version
amoun
showing
few
##oxy
cloning
galt
##q22
groups
epid
##part
following
galactose
diagnostic
apparent
##fficiency
platelets
degree
##olysis
african
erythroc
pdgf
healthy
bacter
isoform
70
84
bel
bir
ey
gre
hp
hel
lab
mor
q3
set
youn
##eous
##ior
##lr
##lig
##yg
##mia
##ke
##17
##ind
insi
ank
##elan
##rie
hair
##rant
##emic
stri
##opath
neon
near
##imin
novo
dyston
genetically
arth
subsequ
functionally
##ymptom
trinucleotide
subset
diabet
##uropathy
wilson
11p13
abnormality
produce
##bral
meas
##ondyl
ess
substitutions
dxys
skipp
becker
##ross
father
investigate
cytogenetic
carcinomas
cerebral
##ensity
extend
rearrangement
implications
value
pedigree
##olipoprotein
electrophoresis
strongly
understan
independent
lysosomal
variable
##arget
therapy
##osaminidase
construc
fluores
american
chinese
thrombocytopenia
##ymptomatic
diabetes
understanding
34
31
79
d4
density
mac
melan
olig
pap
q13
sw
target
viv
yet
##ew
##ied
##ias
##sed
##log
##21
##q3
##xin
##antit
##aries
##rem
##ety
##ilateral
degeneration
proper
##ths
##plac
sufficient
stage
status
##ired
##ffected
exper
normally
spondyl
aber
##ipoprotein
consis
##ify
descent
100
##otides
mean
influ
immune
heterozygosity
approach
norrie
neurolog
milder
examination
##ailable
selected
accounted
relatively
extrem
available
##olipid
copper
particularly
quantit
cerebellar
established
designated
sca3
##arcoma
chronic
gastric
peptide
choroid
apoc2
ratio
informative
skipping
vivo
spondylitis
49
55
75
date
dtd
fg
gel
mess
p16
so
stim
ur
##sel
##ok
##uous
##function
##onia
##onding
##estern
animal
##elone
##ithel
##active
exam
exist
chem
aspart
state
##igen
##tinal
oral
##izyg
apolipoprotein
regulation
assays
prefer
fraction
colla
define
scores
ocular
micros
intra
enzymatic
sample
include
undet
biop
histid
expressing
isolation
pathogenesis
heterogeneous
catenin
correlations
reduction
clear
cleft
survi
testing
cardiomy
selective
iva
##anced
##ocytic
combined
##ographic
mainly
synthesis
corresponding
unaffected
facilitate
benign
##mediate
##ococcal
essential
aberrant
##eloneuropathy
collagen
32
37
63
66
bound
call
down
fh
far
fish
fif
il
later
muc
nt
n3
obl
paternally
sister
##cence
##sh
##led
##lor
##a1
##obin
##oplasia
##mid
##ub
##74
##xpres
##enting
often
##roid
##osing
replac
deaf
conver
##opt
##ained
accep
canadi
##izes
apopt
leukodystrophy
carb
compound
##yltrans
##ylosing
frata
ability
pls
codons
myelin
tra
substr
species
correlated
##cribed
hemizyg
variety
predominant
phosphatase
moder
generation
agu
##oxanth
##ferase
even
fragments
adrenomy
iii
secre
##enger
transcriptional
segregating
pairs
discover
hexa
residue
prevalent
erg
glycine
partially
##rpn
underst
ancestral
apoa
infections
considered
sls
guanine
rflp
hmg
limited
proposed
observation
edmd
required
##odefici
possibility
ionizing
snrpn
tcd
conclusions
##oglobin
ankylosing
messenger
oblig
deafness
##yltransferase
frataxin
##oxanthine
adrenomyeloneuropathy
43
68
99
c4
cath
cug
dre
fer
gly
gam
iod
md
moti
na
nec
others
pan
ra
rele
vas
vir
wid
zinc
##etic
##tle
##rations
##nel
##ced
##46
##inity
##eding
##esting
##atell
##isation
##enty
##oses
repair
reading
##idosis
##erexpres
##ectable
disomy
onc
atten
search
analysed
##tingu
unus
untrans
dysfunction
diet
affect
constitution
##ifuss
functions
interaction
frequencies
hypoxanthine
signs
##achrom
moreover
ester
emery
channel
heterozygote
adenomas
homology
neurode
antigen
throughout
breakpoint
hepat
##ancy
imprinted
recognized
homozygosity
heart
hearing
promot
tfr
anomaly
extensive
supports
antibody
nbs1
malignant
mosaicism
world
eye
neonatal
dystonia
##ipoproteinemia
microsatell
obligate
dreifuss
05
35
38
85
87
94
ax
aus
aku
cogn
eas
hg
horm
hipp
h63
kil
kda
mig
mamm
msh
nm
nature
pt
rh
western
xlr
##tc
##rad
##sy
##sess
##lated
##5l
##5del
##oim
##pec
##uble
##ufficiency
##19
thy
##ensor
##ink4
offs
anemia
##assi
##itus
##ulin
ala
alps
##actic
propose
##eremia
conduc
whom
##ateg
made
twenty
leu
linda
detail
##oretic
unst
activities
##ytes
possess
coh
overexpres
##osphate
##pring
includes
##embrane
yeast
series
sibs
ctx
aga
genome
##ake
six5
##clus
confidence
methylation
##q24
multipoint
absent
pax3
truncating
transmembrane
classic
epithel
upon
represents
implicated
electrophoretic
failure
predisposition
vision
homozygotes
meningitis
meningococcal
cycl
meiotic
cataracts
technique
proteolipid
greater
constructed
choroideremia
undetectable
cardiomyopathy
acceptor
iodide
mdx
attenu
untranslated
hippel
h63d
##oimmun
offspring
lindau
unstable
04
33
300
62
dut
grand
hl
har
junction
lo
pu
por
pts
sa
sgl
utr
ube
xp
xanth
##rh
##gr
##nish
##sulf
##yn
##39
##3a
##30
##ption
##ping
##vis
##vers
##q13
##xic
##88
thr
##eck
##osch
##reated
##atible
##atively
##lex
##acts
exclu
##ursor
##phys
aspa
ascer
contig
displ
##terior
atroph
seem
weak
whose
acyl
##antage
classi
transgenic
neither
compatible
##ylsulf
spot
##trophic
##ibos
differenti
metachrom
inters
developing
variation
serine
##epsin
contained
lymphoma
retinosch
evolution
overall
galns
subject
pathological
developmental
directly
patterns
months
selection
upstream
remains
metabolic
drash
err
##ophys
cryp
finnish
huntingtin
d1s
appeared
brothers
purified
phosphoribos
failed
precursor
caucasians
spanning
rflps
assignment
cosmid
persons
organization
concentrations
denys
isoforms
##opathic
melanoma
experim
quantitative
called
canadian
cathepsin
panel
promoter
dutch
portion
sglt1
metachromatic
retinoschis
03
51
b27
cir
dig
dgs
ear
equ
foci
fkh
glu
gra
great
ml
med
mes
much
ni
pie
sol
sac
satur
sensor
term
xp2
##eal
##glyc
##nal
##not
##cf
##49
##bum
##pite
##f5
##found
thym
##enzym
##esity
##asing
##itol
##eceptor
##re11
tool
##ulate
##olish
##acent
chm
##teryl
beha
##iable
stem
stability
photor
cannot
magel
##ficial
neoplas
she
cap
amyl
##ylgl
prev
presum
##ipar
home
typing
##ogenous
coll
colon
##view
play
difference
despite
intermediate
coa
hypoplasia
cdnas
tumorigen
intracellular
produced
produces
enzymes
included
means
member
##angu
centrom
adrenal
##omatosis
obesity
determination
tests
cytos
hexosaminidase
refl
##avage
duplications
cholesteryl
combination
001
pendrin
lipoproteins
leukocytes
establish
palm
palate
assigned
observations
gaa
##ethal
##bald
##ield
##born
proliferation
##etalipoproteinemia
amounts
birth
labor
extended
dtdst
chemot
intragenic
##loride
apoptosis
trait
##odeficiency
unusual
dietary
constitutional
microsatellite
cognitive
##5delag
attenuated
pts1
fkhr
piebald
photoreceptor
magel2
amyloid
4p
47
400
57
76
aver
bone
britis
cns
dl
doc
fav
gs
gir
giv
kit
kid
ld
lethal
mb
mach
os
perm
rates
stil
ty
tp
ten
upt
##tur
##ron
##gg
##gh
##cular
##ix
##ially
##ying
##41
##dc
##57
##ages
##pase
##pected
##upl
##face
##onment
##inous
##alc
antic
anterior
##ory
##ored
##orption
##row
##ational
##ark
##elve
##ented
##omet
##ositol
tow
##eters
genotypes
##ule
reverse
alu
exc
excess
exclus
chim
chloride
asymptomatic
##odium
suffer
restor
##iest
twelve
transversion
transcribed
identity
amel
##fib
adj
syndromic
##pep
polyps
impro
##generative
affinity
arise
arylsulf
##vior
##char
italian
nonc
subst
150
strain
increasing
indicates
severely
elimin
knock
kniest
##q21
##rosc
alteration
expansions
17q
185delag
contraction
fmrp
cleavage
surro
models
completely
epis
program
##delg
hundred
extent
drug
glycoprotein
criter
##ography
apoe
brother
counsel
variability
##oplasmic
initiation
visual
conditions
xq28
cycle
evaluation
advantage
sensitive
##vironment
mobility
properties
aspartylgl
preferentially
fifth
necess
##tinguish
austral
hormone
xanthomatosis
display
tumorigenesis
british
docum
given
kidne
still
uptake
arylsulfatase
counseling
aspartylgluc
ban
bilateral
ck
cer
cot
fet
fox
gp
hh
jose
ker
lit
lies
lamin
mid
mri
mps
mature
nad
py
p95
rt
rich
rib
rand
rds
s13
tur
wol
wide
##tend
##c1
##cul
##come
##i1
##s2
##lamm
##yte
##9s
##44
##43
##36
##bly
##oot
##pri
##fh1
##77
then
##ontan
an2
angel
##atter
##ances
##ropathy
##eli
##enth
##osed
##read
##atibility
along
##ocere
##ocomp
##olar
isra
island
excep
##uron
check
##phal
##phosphate
##unding
##plant
##embl
whole
##ineous
##inetic
acet
mao
poor
area
##abil
environment
dmt1
spontan
unex
dias
##ado
usually
constit
conserv
consangu
##ostasis
arti
subcl
intergeneration
interesting
spliced
none
glutamine
fact
nucleotides
hemat
production
encomp
inflamm
manner
origins
agg
##ians
##oprolif
int14
provided
know
irish
multim
immunoh
north
obj
retained
clearly
surface
paired
22q11
##iii
remained
250
explan
hyperph
##ensitivity
copy
ancestry
phosphorylation
cerebro
hmre11
anomalies
histocomp
exhibited
antibodies
cataract
embryonic
overlapping
shared
around
tightly
thought
separate
young
striking
fluorescence
799
extremely
p16ink4
example
existence
downstream
motif
msh2
nm23
detailed
##oimmune
differentiation
##glycer
##enzyme
piebaldism
average
girl
machado
tp53
##ght
substanti
surrounding
ckm
certain
cotrans
fetus
joseph
random
s135l
spontaneous
intergenerational
encompass
immunohist
histocompatibility
p16ink4a
200
52
ather
bases
bind
cts
cour
calc
da
ena
go
gon
gran
give
hp2
l1
lig
lib
liter
mim
morph
pten
pmd
q21
ric
rar
sf
sodium
treated
ul
upd
vary
zell
##ef
##gi
##c2
##s3
##ser
##deletion
##51
##abs
##pid
##26
##q14
##wh
##wan
##80
##ensive
##onucleotide
##erg
##estinal
inte
##tions
##utes
muta
##ules
review
alk
alone
##amic
##amatic
##ocal
##acchar
proced
distor
##plo
attem
star
stand
##opolys
##aining
##elling
##otyping
deficiencies
twins
neph
share
leuc
##arily
spinal
unipar
causative
presenting
##ipation
genetics
col17
##ordant
place
characterize
submic
malaria
coex
coupl
cdk4
newly
autoimmune
gldc
fourth
corr
intronic
##allel
evident
originated
reveals
##ldc
intact
clone
lymphocyte
lymphoprolif
emplo
eluc
myotonia
ataxin
catal
correlate
hybrids
smaller
surve
importance
insertions
dramatic
elements
outcome
components
predispose
vlcf
##ophil
times
regulatory
recognition
triplet
manifestation
processing
initial
generalized
exhibit
sensitivity
periodon
arose
geographic
transmitted
erythrocytes
belong
insipid
arthritis
subsequently
oligonucleotide
##q32
survival
ill
##ledge
widely
oncogene
neurodegenerative
eastern
hgo
kilob
xlrs1
cohort
epithelial
ube3a
ascertained
cryptic
phosphoribosyltransferase
xp21
neoplasms
laboratory
chemotactic
anticipation
knockout
##roscopic
criteria
kidney
little
##tendinous
angelman
conservation
artificial
knowledge
explanation
cerebrotendinous
course
granul
zellwe
procedure
distortion
##opolysacchar
uniparental
col17a1
submicroscopic
insipidus
01
53
65
61
78
82
aa
az
aj
bcl
cous
cros
cross
dp
dri
dog
d11
dds
d14
free
field
hin
hot
ham
hpd
hms
ic
iq
kary
kinetic
last
moth
pm
qter
rcc
sj
sard
van
vie
wo
##n1
##cg
##cal
##itin
##ively
##iological
##iology
##ss
##ler
##yed
##64
##d6
##by
##ba
##ban
##ave
##hyp
##titi
##tiology
thre
##enyl
##onine
##onym
##erol
##ested
##alan
##orage
##atos
##anol
##omer
##reh
##atid
##ame
##ocl
##old
prol
asp
cont
##ema
resolution
stable
step
staining
storage
##teen
##ineural
acute
phase
need
neut
nearly
compreh
##ylated
polygl
polypep
##apt
##apton
fruct
heterod
reports
consens
plac
##blished
must
seventh
muscles
cover
cdh1
probability
facial
nucleus
strateg
increases
introns
sera
black
encode
living
accomp
espec
significance
simple
##tries
##s10
center
neurofib
obvious
fold
predicts
fatal
deriv
restricted
characterised
secondary
discuss
##delc
refs
dxs42
glycerol
south
ndn
distributed
regulate
cyp27
sulfatase
ancestor
countries
percentage
leukemia
africa
represented
meioses
cyp2c
minimal
##70s
##onuclease
inhibitor
neurons
erythrocyte
pdgfb
subsequent
measured
macular
consists
neurological
biopsy
mucopolysacchar
n370s
substrate
predominantly
understood
gamma
relev
mammalian
published
interstiti
diges
sensorineural
4p16
oste
permit
exclusively
chimeric
##fh1p
acetyl
diastrophic
consanguineous
interestingly
hyperphenyl
cotransporter
immunohistochemical
calculated
libr
ricof
alkapton
coupled
lymphoproliferative
crosso
mothers
sardin
view
woude
threonine
polyglutamine
consensus
accompan
especially
mucopolysaccharidosis
interstitial
hyperphenylalan
alkaptonuria
69
64
72
71
77
83
98
ao
aap
cas
cran
cpo
current
dinucleotide
fund
gh
gch
gang
hs
idi
ja
ju
ke
khk
mh
mass
mcc
mcle
nin
nib
natur
ops
pom
pul
pits
peters
rod
rise
sd
sal
sized
slow
sterol
ta
tai
uro
ver
ves
w4
wd
yem
##to
##rore
##gal
##iologic
##l1
##yelin
##40
##33
##65
##d1
##ape
##oin
##p70
##uit
##utic
##ked
##ffic
##wise
##ways
##ondro
##erated
##ined
##inting
inner
##ale
anonym
##atch
##aneous
##isen
##ises
##itude
##icid
##ardi
##entric
##omes
##omplet
toxic
##ete
genet
refer
always
##enced
##ocor
contin
##oderm
##odenal
##sively
##ia1
resembl
stabil
##ople
##opigment
##ogram
accur
canav
twin
twist
transgen
locations
areas
##onses
engl
adh
syndromes
incomplet
unc
diff
diverse
diffic
##plication
affects
parts
##athers
##ologous
differential
sch
subc
responses
hypob
hypopigment
##ughter
auth
producing
demonstrating
modify
specifically
lie
involves
c26
##actures
137
hdh
lowe
intestinal
else
insufficiency
segments
dominantly
neurohyp
localize
localisation
##lier
##pendently
systems
reduce
contractures
lipase
##oblastomas
similarity
double
duodenal
##ologically
transient
complexes
investigation
discordant
##iques
cytoplasmic
bpad
electrore
ivs
ivf
telom
progression
hypothes
estimate
translocations
finally
oxidative
deline
conformational
mitotic
independently
degrees
impairment
created
slight
##vention
##venile
allowed
therape
##occan
protection
1998
mjd1
evaluated
advanced
techniques
cyp2d6
bands
microdeletion
peak
people
comprising
disrupted
transfected
introduced
transmitting
utilization
epiderm
bactericid
moroccan
insight
papill
swed
targeted
neurologic
stimulation
urid
biopsi
moderate
virus
hepatoblastoma
migration
ptt
saa
xp11
excluded
##ophyseal
earlier
behavior
presumed
homeostasis
pts1r
restored
adjacent
strains
episod
drugs
documented
checkpoint
maoa
objective
daughter
enabl
varying
mutagen
survey
kilobases
zellweger
bcl1
pmp70
comprehensive
polypeptide
aapc
crani
gch1
idiopathic
juvenile
mcleod
nibrin
pomc
taiwan
urogenital
yemen
canavan
incomplete
hypobetalipoproteinemia
neurohypophyseal
electroretin
therapeutic
1q32
42
41
59
88
97
ae
aim
bul
bfic
bord
bax
b18
cis
cur
ect
fal
fgf
gg
gi
good
green
hrad
ire
km
kap
lay
lup
lpa
latter
mell
mater
mill
maternally
psi
psor
p19
rad
rang
sum
sarcoma
ter
vs
##t3
##n5
##nb
##ci
##cas
##ious
##lic
##yri
##4a
##4v
##35
##3del
##din
##dis
##ou
##ove
##ooth
##oie
##min
##urom
##utive
##ks
##fold
##71
##q0
##w2
##went
##8r
##85
##ones
##ines
##inositol
inactiv
inborn
angi
##ording
##isphosphate
##astic
##aring
##omain
##osamine
##osensitivity
##used
##ustr
##uscular
##ils
##amb
##amp
##acial
progn
proline
pros1
profound
exis
##rix
##ritin
##ypical
dist
distinguish
##ematos
atypical
##ressin
states
##opoie
##opressin
actin
maob
analog
##ionally
neiss
neurom
regard
##abd
##cade
brit
entit
enhan
detects
##ylinositol
dm20
spin
noted
regional
unli
unilateral
dysm
##genit
presymptomatic
able
abolish
above
##ipolar
homogene
exonic
reporter
arisen
parental
colia1
##orded
scan
occas
molecule
##ched
repeated
interf
reliable
coenzyme
highest
hypot
myfh1p
specim
abnormally
phosphatid
orient
additionally
super
infants
block
generate
specificity
accel
according
130
##aken
intell
sixth
##radi
smooth
glucuron
immunodeficiency
became
isolate
endogenous
neurophys
positional
##14d
surg
segregates
monocytes
monocl
discs
discre
discoid
fibroblast
underwent
ashkenazim
particles
confirming
253
residues
##angioblastoma
decrease
synten
ergs
##h17b
inhibited
inhibition
peripherin
copies
culture
find
finland
woman
broad
##42g
processed
boys
predisposes
predisposing
considerable
extracellular
spanish
limb
propositus
extending
erythematos
edh17b
##22s
rapidly
correspond
cyp2a
fingerpr
assessed
possibly
embryos
matter
matrix
consequence
consequently
neuronal
cpg
bacterial
help
dxys1
d442g
boundaries
n314d
carbox
carboxy
substrates
hemizygous
hemizygotes
secretion
discovery
discovered
understand
hmgic
ferritin
vasopressin
rhabd
thyroid
conducted
overexpression
harbor
atrophy
seems
error
experiments
retinoschisis
greatly
centromeric
##turb
australia
##priate
##ocereb
environmental
ckmm
ctsc
goiter
ligand
##where
integr
employed
vlcfa
illustr
hpdel
neutroph
##aptoglobin
derivative
cyp2c9
digestion
acetylgal
fundus
natural
anonymous
hypopigmentation
authors
elsewhere
slightly
bactericidal
fgfr
lupus
mellitus
##opoietic
neisser
neuromuscular
entity
phosphatidylinositol
glucuronidase
monoclonal
erythematosus
acetylgalact
1q24
56
58
86
ai
ages
bin
bal
bas
ble
box
bull
b10
bipolar
ci
cut
core
copro
curr
dos
dim
d13
egr
fn
fast
fetal
fathers
g2
gain
gied
gba
hc
hence
hand
hpa
id
kd
lang
loh
mc
mis
mism
np
nar
od
pi
pig
past
ques
q18
q24
root
son
suc
tar
tet
tem
tand
vect
viii
wave
xk
yiel
##equ
##ead
##nf5
##cat
##coh
##iting
##ytic
##69
##dys
##dden
##52
##bulin
##oanti
##oins
##oplant
##hy
##mon
##mal
##max
##kin
##kish
##f1
##fram
##zed
##wide
##86
##87
##8q
##tium
##titis
##erous
##inase
ini1
anci
##orter
##ats
##ank
##rox
##rovir
##itable
##ick
##icine
##arte
##arding
##eled
##oms
##omin
##oscl
##osidosis
##etric
rein
repro
album
alcoh
prove
proble
examine
exclusion
chondro
confer
diss
##thal
att
##resh
begin
sudden
resc
##opa
##iratory
compl
##tex
##teine
ach
acth
across
##tract
phe
phot
##geting
magn
maximal
##porph
analbum
transform
nebulin
recorded
shorter
cape
regarding
##abase
founding
spans
##gest
incor
unch
united
##stop
prepar
better
##ad4
##ada
abund
##ipit
activated
activating
##onged
scot
##ifts
indian
descrip
subgro
respect
##ches
interact
interacts
internal
italy
hyperm
myogenic
trp
##agement
105
gln
studying
##ections
haploins
##uplex
hemophil
demonstrates
##embly
##pression
modified
14q
blind
generally
management
original
prone
13q14
bias
lymphoblast
retina
recombinants
larger
smad4
##q23
immunore
immunobl
immunochemical
##oblasts
##rosarcoma
amplitude
cataly
##liosidosis
lipid
retrovir
##rinogen
duarte
confirms
numerous
representing
carcinogenesis
##taden
505
performance
radiosensitivity
older
##pherocytic
breakage
reactions
synerg
lacked
lacking
primers
regulated
blotting
contributes
potentially
arg95
thrombosis
occurring
precise
yacs
extra
extrac
galactosidase
rather
allows
supporting
gave
histone
alternatively
signaling
oppos
explained
##beta
##osaminuria
requi
construct
assessment
cg1
cysteine
cystaden
concentration
amount
##oxygenase
epidem
belie
younger
measure
dxys12
extreme
fgd1
histidase
histidine
boundary
converts
moderately
secreted
virt
searched
interactions
grandf
contiguous
atrophic
weakness
classified
classification
evolutionary
errors
retinoschisin
saturation
prevent
palmoplant
amyloidosis
toward
17q12
necessary
aspartylglucosaminuria
banding
foxc1
nadp
turkish
wolfram
israeli
except
unexpected
inflammatory
aggreg
multimers
literature
attemp
standard
catalyz
periodontitis
granulocytes
cousins
karyotype
prolonged
heteroduplex
covering
relevant
hyperphenylalaninemia
gangliosidosis
hsnf5
key
transgene
subcellular
1376
epidermolysis
swedish
biopsies
episodes
electroretinogram
hrad50
psori
summ
spinocereb
abolishes
intellig
edh17b2
acetylgalactosamine
aih1
binds
bullosa
coproporph
dosage
egr2
giedion
langer
mismatch
npii
narrow
q188r
targeting
tandem
ancient
##oscler
reproduc
albumin
alcohol
chondrodys
analbuminemia
subgroup
haploinsufficiency
hemophilia
lymphoblastoid
immunoblot
catalytic
retroviral
palmoplantar
spinocerebellar
08
67
81
aun
adi
a25
b1
bor
bod
cf
categ
dg
dil
dp2
dimin
dyn
dw2
d22s
eps
egf
efficiency
ef5
fall
flow
gk
germin
hn
hour
ib
irel
kore
lec
lgs
l10
lcat
mas
mns
mtd
motor
native
pter
pst
panc
port
pex
polish
que
q22
rist
rob
rational
rank
sil
side
sizes
ub
vc
vol
venti
wf
way
xy
yn5
zmax
##ea
##etin
##exim
##earch
##ture
##taken
##t87
##rec
##gldc
##nt
##nes
##iotic
##selling
##92
##91
##34
##37
##60
##68
##bec
##bular
##bour
##aum
##2a1
##me
##ua
##uable
##02
##f2
##fect
##7s
##wing
##8s
##je
##onance
##ered
##educ
inj
inst
inactive
##ortium
##ather
##atl1
##rop
##istic
##istry
##ito
##art
##ards
##elf
##entally
##osal
##osure
##ret
genotyp
##leg
##idym
alanine
##ilial
##ametric
##amilial
##encing
##ocetin
##acet
##acity
##actor
##acep
defic
proxim
progenit
isles
##ury
##ph2
##undic
##ysmal
asn
as9
asef
cone
conv
concer
##ucial
discl
##emin
bearing
rest
research
resonance
stature
why
##tead
##inea
##ineal
alloanti
phage
canada
mab
max
exposure
transactivation
never
neural
##ichia
recurr
recover
shift
chromatin
assembly
compens
detecting
add
adul
adoles
notion
imp
##tives
uncle
pregn
associate
##aps
##unct
homogen
consortium
parallel
colch
col2a1
parox
clinic
otherwise
carries
marrow
metast
malform
malabs
relation
coats
cd95
myel
tris
true
newfound
signall
aldp
aldrp
glob
glomer
former
formed
nuclei
gross
##prising
mexic
modification
infer
14c
feature
generates
originate
ago
c2q0
prph2
##uctase
esd
biology
itself
instead
retinitis
confers
iris
irradi
mrnas
complementation
##aturing
immunologic
##rosp
homologues
endonuclease
adrenocor
pathology
pathophys
absorption
amplify
mildly
structures
187
correlates
systematic
remo
remark
contracep
lipomas
surprising
suspected
phenotypically
undertaken
susceptible
particip
transferase
vwd
nonspherocytic
duplicated
prior
element
oxidase
values
valuable
imprint
estimation
prad1
##ohexim
combining
crucial
regulates
##rocytic
recognize
delta
trig
triglycer
##enchym
counselling
retarded
create
purkin
quanti
extracts
leukocyte
guinea
xq26
pigmentation
allowing
ifn
optim
concluded
evaluate
dxs10
malignancy
transporters
ocrl1
matched
comprised
gtpase
tcf
##onuclear
haemolytic
haemolysis
haemangioblastoma
transfection
sharing
pseudodeficiency
geograph
introduction
epididym
845
hp1
hela
labeled
q31
##key
arthropathy
extends
fluorescent
papua
consisting
influence
493
##okinase
examples
preferential
##74c
replacement
converted
##oglobinuria
raised
vascul
antigens
worldwide
mammary
##pecific
cyclohexim
junctions
experimental
cirrh
circul
mesenchym
nih
soluble
saturated
termed
capable
centromere
reflect
ldl
tyros
suffering
##778
poorly
substantially
encompassing
atheroscler
gonad
nephropathy
leucocytes
correct
elucidate
belonging
dogs
sjs
content
strategy
crossover
sardinia
jaundic
mhc
w474c
##entricular
reference
accurate
english
telomeric
behavioral
enabled
craniof
border
ectopic
million
psigldc
exists
distance
interfere
hypotonia
specimens
orientation
##aptoglobinemia
bleeding
currently
fndi
odds
piga
question
vector
attack
complotype
incorpor
immunoreactive
arg95stop
summary
intelligence
body
dgge
diminished
dynamic
ireland
korean
mtdna
pancre
pex1
quebec
ristocetin
ubiqu
vcfs
ventil
wfs1
disclosed
unclear
homogentis
colchicine
paroxysmal
malformations
malabsorption
newfoundland
signalling
irradiation
purkinje
cycloheximide
circulating
jaundice
06
02
1g
2p13
442
54
5q22
89
8q24
92
aas
a46
bt
bu
bz
bisphosphate
cen
coch
d5
df
dat
dan
dose
dpd
dda
days
dcc
dnas
d9s
dopa
ever
etiology
ewing
fo
fut
france
foot
fresh
gr
gc
gm
hbl
i1
ile
jus
lost
mz
mx
mix
mentally
nis
net
noc
oil
oph
oocytes
oatl1
pg
pk
pde
q41
rd
rs1
r49
r40
spl
sour
sial
sws
s65
t3
tom
tag
t16
via
vers
varies
ventricular
word
wag
xai
xldc
##eks
##toph
##ru
##ray
##ged
##garian
##nj
##co
##cher
##c12
##ival
##sf
##ster
##lin
##less
##larg
##yond
##45
##48
##413
##66
##6h
##dh
##dle
##dia
##dher
##bp
##bow
##aph
##ov
##oad
##p1
##pcc
##vp
##vre
##vity
##vate
##hi
##mt
##mus
##mate
##ued
##kus
##1c
##1a
##factor
##zen
##qi
##wor
##8c
##junction
##jme
thoms
##eni
##enic
##ening
##onization
##onian
##erts
inositol
indis
##alphal
##org
##ori
##ana
##ano
##ania
##rog
##isely
##ites
##itop
##icles
##arrh
##utation
##omic
##ommon
##ecanol
##osi
##osp
##osuria
##osterol
##osarcoma
##osyn
##ulating
##otri
##atis
##atitis
reas
##ides
##idated
##identi
alger
alread
##amide
##olic
##olonic
##olest
##acy
deamin
depos
prov
isole
exit
exch
chh
chang
cholest
##phas
##unity
asian
##yptoph
conn
conc
convention
contex
##ucine
##ucher
distric
##odend
##odomain
##plained
##ress
beyond
seps
stm
##iguous
##dim
##dient
##diii
##opia
weight
weeks
##oglyc
act
##tration
##truct
canine
##izide
cld
exposes
rece
##astatin
syna
chromat
lefe
cadher
cartil
enlarg
##fibr
phenyt
admin
spg
spain
polynes
imper
immediate
unbal
unsel
unamb
unequ
unidenti
associations
##gens
diarrh
expressions
fraum
press
##adecanol
abetalipoproteinemia
##ipizide
typed
typically
consec
##ands
##aryotic
##ordin
##aracterized
plus
scn1
scler
##ifies
desm
subt
##orphic
respiratory
interp
interfer
apc2
presentation
highl
ovary
hypers
hypomy
cdca
nonrand
myopathy
mostly
trace
tryptoph
probable
##aging
newborn
gla
glipizide
154
corne
demyelin
german
11q22
##13f
variations
demonstration
##ocytosis
infecti
infusion
##eping
generating
originally
effective
ctla
agents
c2o
prav
princ
1388
escher
responsive
biological
elbow
1995
##raw
simult
herein
confined
beta2
##plement
complementary
resultant
centre
centrocytic
##psy
comparable
endpoints
endemic
pathogenetic
pathogenic
appropriate
abstract
##time
fibers
antis
antiser
localised
##lie
17q21
truncate
188
163
systemic
reduces
hybridisation
predict
translated
retrosp
hprty
characterisation
segregated
basepair
epitop
investigating
inserts
mono
monkey
##tism
underlie
c5d
self
##ochrome
hexadecanol
refin
refine
accounts
dxs52
confirmation
decreases
ivs1
medium
mediate
##ancies
hypertrophic
hyperalphal
multiplex
inhibits
donors
##ophor
##12s
distinc
flanked
timp
thirds
thirty
receptors
electrophys
##rocytes
oxidored
d15
d17s
delay
atpase
210
maintain
##tany
contribution
##growth
index
degrad
arg1
processes
creatin
creates
purine
##oplasm
initially
waspdim
precisely
identifying
armen
peroxisomes
promp
xq22
pigmentosa
##231
transmissions
487
protective
supported
gaucher
exhibiting
organs
1994
overload
synthetic
open
mitochondria
dxs164
pathways
potentials
americans
##aij
##247
##20m
china
pepd
##virus
comprise
comprises
unable
consequences
disrupt
disruption
shares
inhibitors
pseudogene
362
cgg
tendency
introduces
##oglob
translational
lifetime
denaturing
utilizing
separately
fewer
84gg
births
hpc1
d4s10
paper
properdin
experi
influences
influenced
754
gels
stimulated
urine
animals
reductions
clearance
fhf2
sisters
motifs
raise
release
channels
hgd
xlrs
thy1
conduction
overexpressed
epithelium
grandm
hlod
harbour
load
##physeal
equal
equally
grade
gradient
nijme
saccade
capacity
collected
cytosk
cytosine
establishment
favor
tyr
##turnal
##ometry
towards
excessive
suffered
amelogenesis
improved
contractions
##tinguishable
australian
aspartylglucosaminidase
foxc2
gpi
gpia
keratosis
lamina
israel
unexplained
inflammation
strikingly
##glycerid
substantial
morphologically
ultr
reviewed
##allelic
elucidated
drive
d11s1
d14s2
hindiii
hamster
##cald
needed
fructosuria
neurofibrosarcoma
discussed
library
libraries
accompanied
pulsed
vesicles
continuous
resembling
stabilization
uncommon
difficult
papillon
uridyltransferase
mutagenesis
yemenite
aetiology
faldh
kaposi
material
ranging
##yria
angio
regarded
brittany
homogeneity
occasionally
accelerated
discrete
synteny
fingerprinting
illustrates
neutrophils
neisserial
balanced
d13s3
idms
mckus
roots
##hyd
problems
magnetic
uncharacterized
description
believed
grandfather
aggregation
immunoblotting
aunt
dilated
germinal
hnpcc
massive
portug
silent
##fecta
genotyped
proximity
adults
glomerul
mexican
surprisingly
triglyceride
epididymis
cirrhosis
mesenchymal
tyrosine
incorporation
dynamics
ubiquitin
a464v
bzs
database
danish
ddavp
d9s5
future
i113f
mxi1
nocturnal
ophthal
r496h
s65c
t312s
t1620m
versus
words
wagr
xldcm
indistinguishable
already
isoleucine
exchange
cholestanol
conventional
context
lefevre
cadherin
cartilage
phenytoin
imperfecta
unbalanced
unselected
unambiguous
unidentified
fraumeni
scn1b
sclerosis
hypomyelin
nonrandom
tryptophan
demyelination
infectious
pravastatin
princip
escherichia
simultaneous
hprtyale
oxidoreductase
degradation
nijmegen
mckusick
2p
3t3
4q3
5a
650
73
91
au
ak
aqu
afibr
bot
bam
bfl
ce
c1
c0
cac
cost
cord
ccc
ccg
camp
ds
day
dying
deduc
ea
euk
e14
fa
fk
fed
ful
f10
f8c
g5
gol
gard
g30
h1
hod
hither
hh1
hbeta
hosp
ix
iop
ide
ki
ly
l5
lor
live
lars
mm
m1
mct
nit
nam
nts
norm
nif
nether
nkh
nested
otc
pn
p4
p6
pv
p1
pil
p15
p21
psy
punct
q12
q26
rn
rv
rnas
rash
rule
r778
sough
s14
tg
tic
tata
t27
ven
wt
wnd
w27
xl
xen
x25
yield
##tant
##tag
##treated
##ril
##rely
##rill
##gely
##nnb
##cross
##cn1
##iphyseal
##sue
##side
##suit
##lase
##lorph
##lled
##97
##9s1
##9delg
##4m
##3c
##6p
##62
##dom
##ds1
##draw
##58
##bo
##bit
##but
##bri
##baij
##ade
##oe
##oac
##oass
##oactive
##ovirus
##ped
##pop
##ptic
##pers
##path
##pag
##285
##hou
##haps
##haptoglobinemia
##mend
##uting
##uii
##ube
##kb
##kip
##kely
##kii
##kins
##1s
##0v
##75
##78
##zos
##zema
##way
##83
##jun
##tides
##tibular
thal
thous
therm
##enir
##enzos
##ontal
##erate
##erbaij
##inogen
##inucle
##edip
##estin
inver
inap
off
offer
##alog
an1
anion
anch
anhaptoglobinemia
##orenal
##atric
##atenin
##rodi
##roce
##rolled
##istration
##as8
##asth
##asive
##astruct
##ice
##arb
##eling
##uter
##omen
##ostic
##osition
##oside
##ush
##eta
##etry
genital
genotyping
withdraw
##ula
##ulatory
##ulocere
##otzen
##veolar
reag
reactivation
genealog
##ida
##idine
alst
alveolar
##ilon
##amel
##ameters
##ocol
##ocop
##acted
##actical
##acute
##acatenin
prof
profi
proved
propag
exact
chs
chemical
chlorph
chotzen
##phritis
##phaly
##unk
##ystal
##riers
asians
##ypsin
const
concep
##ucoma
distingu
disturb
wasting
hapt
##odon
##odal
##oding
##thens
##plied
##ements
##emistry
##ressive
seiz
subl
resting
reside
stages
stead
statis
##ope
##opy
##opus
##oprec
##ogren
##aine
allotype
allotypes
##ella
##na1a
##ersely
make
maori
##ported
clp
clcn1
application
##ions
twice
transpor
transplant
neoplasia
##ermaph
recons
recip
pool
points
leban
ca12
cajun
##arities
##aby
##abor
identif
##hereditary
brct
brush
computed
composed
composition
eng
enter
enough
enrolled
enamel
phenomen
phenocop
dmr
dms
spar
spread
spastic
incub
##ociation
imaging
unre
units
untreated
prep
died
diver
divis
dioxygenase
##cephal
betacatenin
abc
abrog
homo
affective
arres
arabs
array
activates
activator
colonic
col4a
g6p
plays
placent
perch
perturb
perhaps
##uclear
differed
differing
differently
scal
##ifted
desc
destro
subpop
subacute
oculocere
inversely
##urea
heat
meta
molecules
##cha
intercal
it15
coinc
##requently
hypoh
##ochemistry
##tituted
nonne
nonpar
nonhereditary
polymorphonuclear
myopia
myasth
tract
community
autoin
substit
speculate
intraf
1195
11q13
missing
haplotyping
hemangi
hemolysis
thereby
varied
##istently
predomin
diagnose
##brorenal
meg
serve
mode
modulation
infected
infancy
infrequently
##uchi
describes
145
142
feeding
involve
ctnnb
120
practical
##assemia
lymphoid
lymphoblasts
##angial
emphas
1936
recommend
##112
afap
##plasias
##ulties
evok
overgrowth
conflic
largely
##tenance
multis
immunological
immunoprec
become
century
ataxias
##poly
##oneal
##onephritis
compare
adenine
terminus
terminally
alters
##obic
neuropath
similarities
fibrinogen
fibrill
##oids
analyze
177
181
lineage
remod
obtain
##omyosarcoma
prediction
predictive
doub
clef
classes
determinant
likeli
segregate
epiphyseal
inserted
testis
underl
220
cytochrome
hydroph
##dela
##ochromocyt
##279
##abolism
biochemically
c739
reflex
transitions
rearranged
ava
avoid
negroid
##tility
lengths
treatments
eleven
outer
outside
implicate
implicating
progress
europeans
ert87
##ralg
dystrophic
hypertrophy
hyperker
estimates
273
induces
manifested
##ohermaph
primer
primitive
primarily
flank
combinations
crystal
##exp
regulating
regulator
##rocal
premutation
histories
historical
d18s
blots
293
maintenance
trial
definition
appearance
##lands
entirely
frameshifts
bov
creating
fasting
pursuit
phosphorylated
232
symptomatic
considerably
408
extraction
peroxisome
promin
xq25
backcross
pigmented
designed
proto
protocol
signals
1996
sca2
sca1
##ethre
##ethylation
##ethylated
explaining
ethnically
postn
postulated
postulate
chrpe
fluid
##oflu
malignancies
transcriptase
gastr
##ashi
relationships
microg
proportions
minor
overlaps
459
snf
##255
##onucleotides
transfusion
pseudodefici
pseudohermaph
cysts
tendon
proliferative
392
d2s2
eczema
pdgfra
eyes
q33
q35
setting
striated
striatal
dystonias
arthralg
cytogenetically
343
d4s
macro
oligodend
oligonucleotides
swi
##ewed
consisted
fga
aspartoac
enzymatically
histidinemia
fhm
mucosal
##lorate
replaced
apoptotic
gamete
oncogenic
877
879delg
axon
axons
axonal
migr
ptpase
##ink4b
possessing
cohen
saethre
ascertain
phosphoribosyl
equival
gravis
mlh1
medull
mesangial
solid
thymus
thymidine
behavi
shekii
presumably
homeodomain
palmito
4003del
cnsha
favism
ldlr
lethality
##4107
##ometri
##ometric
excre
improve
noncons
noncoding
episode
programs
displayed
keratin
middle
pyru
ribonuclease
wolman
constitutive
subclones
hematological
hematologic
hematopoietic
aggressive
randomly
spontaneously
mimic
rara
ulc
attempt
start
starting
standardi
coexist
dramatically
azerbaij
d14s
hinfi
sjogren
strategies
dxs426
crossovers
ninth
ninete
opsonic
taqi
vestibular
##yelinating
##odermal
differs
difficulties
hypothesized
hypothesize
microdeletions
papillary
uridyl
curve
curves
gga
ggm
giving
rad50
##nb4
inactivating
prognosis
prognostic
analogues
enhanced
unlike
unlikely
dysmorphic
dysmyelinating
scanning
1309
neurophysin
neurophysiologic
surgical
surgery
carboxyl
carboxylase
rhabdoid
rhabdomyosarcoma
integrity
cutaneous
hcds1
tetr
temper
yielded
reintroduc
beginning
transformed
prepared
abundance
synergistic
extracolonic
opposite
requires
cystadenoma
epidemiologic
virtually
attempts
electroretinograms
psoriasis
coproporphyria
chondrodysplasia
dp260
roberts
instances
convul
concerning
restore
recovery
adolescent
implying
pregnancy
trisomy
formerly
pathophysiology
remarkably
quantities
optimum
geographically
vasculitis
atherosclerosis
gonadal
craniofacial
attacks
pancreatic
ventilation
homogentisate
442d
dfnb4
every
foveal
pdeb
source
sialophor
tomography
##work
thomsens
##otriglycerid
algeria
deamino
province
district
stm7
received
synaptic
chromatography
administration
polynesians
unequal
diarrhea
pressure
consecutive
hypersensitivity
glaucoma
corneal
elbows
beta2m
antisera
epitopes
distinctive
d15s
creatine
armenian
experienced
harbouring
loaded
ultrastruct
glomerulonephritis
hypomyelination
principal
afibrinogen
botroce
bamhi
bfls
c04107
cacna1a
deduced
e148q
fkhl
feder
fully
gardner
g301c
hodg
hitherto
hospital
idea
lorenzos
larsson
mmol
m1v
mct112
named
normotriglycerid
nifedip
netherlands
pnh
p450
p65l
pvuii
p15ink4b
psych
rnase
r778l
sought
s144
t274m
xlt
xenopus
##oassay
thalassemia
##eniramine
##inucleotides
inverted
inappro
##roditism
reagents
alstrom
profile
chlorpheniramine
constant
concept
distinguished
haptoglobin
sublocal
steady
reconstituted
reciprocal
lebanese
phenocopies
placenta
perchlorate
oculocerebrorenal
intercalated
nonparametric
myasthenia
autoinhib
intrafamilial
1195delc
hemangioblastomas
ctnnb1
1936delg
evoked
immunoprecipit
fibrillation
likelihood
reflexes
hyperkeratosis
pseudodeficient
pseudohermaphroditism
aspartoacylase
equivalent
palmitoyl
4003deltc
pyruvate
standardized
azerbaijan
nineteen
robertsonian
sialophorin
afibrinogenemia
botrocetin
normotriglyceridemic
nifedipine
09
318
450
500
600
700
7q3
788
9q13
a3
a8
aat
bg
bb
bf
ber
bar
bran
best
bfs
bmt
cz
cam
cum
cow
cose
centi
ccald
db
dere
derm
dual
denti
dax
duct
dfs
dark
dba
dc12
d9s1
dinucleotides
e4
e3
eigh
e13
fc
f9
fel
fig
fine
fab
fad
gent
g13
gest
gaz
gtd
grad
hu
hus
house
huron
iia
igf
i65
ka
king
ket
kts
k247
kaby
lon
lam
luc
log
lap
lath
lox
lcr
lens
lrp
l23
lamb
m2
mw
mil
mast
mcf
m69
n9
nys
nla
nail
nude
nco
om
p2
pf
pit
pic
pet
pure
pup
p13
pass
p22
p20
pas8
q14
ring
rus
rac
rect
rab
rough
rou
racial
r231
r279
sons
sense
sof
sections
semin
tn
t4
tor
tit
tak
ttc
titin
ure
vic
vel
vast
vib
vii
wal
ways
wfs
w18
wnt
yma
zf
zone
zeta
##eor
##tons
##tally
##rate
##rine
##rsf
##go
##gu
##gx
##greg
##galy
##gthens
##num
##national
##cogene
##ier
##itic
##iosis
##iary
##yly
##ygen
##yroid
##yrinogen
##9t
##96
##4s
##4p
##67
##dinal
##domain
##b3
##bes
##bre
##bers
##bian
##biotic
##ohydro
##pen
##ply
##p11
##p57
##pread
##pyri
##2t
##vage
##vised
##vania
##hom
##horm
##hron
##h4s
##mac
##mark
##morg
##uese
##uber
##04
##fel
##frsf
##7bl
##western
##84
##8b
##81
##8w
##js
##tized
threat
##ension
##eness
##ona
##oned
##onical
##onclus
##onopathic
##oncogene
##erc
##erary
##erating
##erior
theory
##inth
##insa
##infl
##educt
##edema
##espread
inges
inversion
india
##alpha
##altons
##orig
##ories
##atally
##atogenesis
##rous
##roso
##isting
##asal
##itch
##itory
##itoneal
##icap
##arance
##armac
##elos
##eless
##utable
##omated
##ombian
##eciable
##ectives
##osen
##osum
##osine
##ingly
##usal
##uscrip
tooth
toler
totally
##ets
genesis
##ulus
##ulative
##otr
##otal
##otox
##romy
##romatosis
##ley
reversion
reactive
revers
replication
reacted
##ided
##idism
alport
##illes
##iliary
##ameter
##ocrine
##olec
##oliosis
##aced
forkh
depres
depend
deacet
proph
provis
issue
exer
exce
ext1
exogenous
##ectomy
##ectodermal
chen
chase
chosen
##phi
##ung
##unities
##unds
asia
conversion
convers
conjunction
##uction
disap
dispers
once
##umps
##sivity
##rants
##ranial
##rances
##ranuclear
##thr
##thy
##theless
##plies
##ously
##seg
attrib
atelos
betic
beans
seph
resol
resist
ste
stren
st14
stores
stress
##tically
what
##ormity
come
complic
##teogenesis
##tine
acro
acts
acqu
actc
acp1
##trin
##trypsin
phag
pharmac
canonical
##encephal
##osome
##osomes
oriss
##izer
appr
apt1
##imen
##imetry
shifts
shifted
lea
lef
levior
analysing
ca9
regular
##ariant
##cades
assum
assembl
brid
amb
amish
care
cardinal
computer
enrich
energ
deterior
##ylactic
##ylvania
dm15
adca
adap
added
##oretinal
inconclus
##ociated
##pearance
polycl
note
##ozygotic
imm
immedi
implement
until
univ
unlin
preass
preven
associates
##genesis
diur
expressivity
causal
##ighting
seques
##cephaly
frax
frontal
##othel
##eterious
presents
heterogenous
heterologous
##adc
##adder
##isms
##ible
aborig
suggestive
##lue
##ogenin
##ostosis
parathy
parameters
colitis
colocal
colombian
deformity
##itively
##itimate
plant
peritoneal
scale
subnormal
subdomain
ochron
invariant
heav
metall
code
codes
codominant
respond
##chidism
malformation
interest
international
obser
apcs
presentations
cofactor
nonpoly
myc
trich
traf
traced
##agu
commerc
109
1000
1024
##velopment
autologous
automated
gli
glial
glands
face
153
fourteen
cortical
corinth
demographic
demethylation
intrac
119
112
hemi
hemopoietic
hemoglobinuria
enzymopathy
oriental
meps
serious
##atest
heritable
##epithel
140
14q24
14q32
bladder
feo
manuscrip
originating
effectively
126
12q22
agent
##oprote
c22
##axis
##actyly
134
revealing
intake
intranuclear
clonal
bio
biased
lymphomas
sixteen
providing
##tality
194
19q
19q13
1986
##rays
insp
instr
institution
insulin
aminoglyc
controlling
controlled
##11a
myoton
risks
recombinations
eva
skewed
##trian
largest
variance
##lav
immunos
immunity
immunocyt
immunoglob
immunoflu
becomes
centers
centros
comparing
subjected
endometri
terminating
pathologic
##sors
##omatric
neuropsy
neuroectodermal
similarly
cats
catabolism
antibiotic
antitrypsin
##regulation
dehydrogen
18p
patch
positioned
ctgs
lineages
methodology
reducing
wellness
##140
##148b
##ators
##atories
follic
##ervical
hybridize
hybridizing
predicting
predictor
smallest
retain
somewh
derive
determining
##tonasal
longer
decay
investigations
monit
monozygotic
202
plasm
22q13
c57bl
cytolytic
cytoplasm
##del16
upper
numbers
repressors
whenever
305
c79s
c79t
accounting
electron
dxs255
radioresis
radiographic
radioimmun
negatively
breaks
metabolizer
explored
ivs10
oxygen
suppress
progressively
leader
dystrophies
hyperacet
hypothyroid
lacks
##nsylvania
2774
##16p
induce
induction
inducing
manifesting
##ohex
c6d
##12del16
006
duration
cultures
closest
deleterious
pennsylvania
##p25
##p21
stranded
triple
tribal
telangiectasis
indeed
consideration
defining
accumulate
counter
country
lysis
creation
physically
physiological
physiology
phosphoryl
2304
##oplastic
initiate
precipit
predisposed
considering
amniotic
spaniel
arginase
argininemia
guang
##183
penetrances
limit
palestin
##bodies
anomalous
##ammatory
proposal
extension
extensively
264
edm
protected
distributions
histological
histologically
spermatogenesis
1993
1997
optic
opport
isoenzyme
meiosis
##arcomas
dxs16
dxs146
dxs144
##omegaly
person
personal
peptides
protease
sexes
sexual
microar
dxs72
dxs742
backgrounds
embryo
gtg
gtp
##onucleoprotein
consequent
disrupts
haemoglobinuria
inhibitory
thrombocytopenic
cga
cgp57
gef
gefs
tendons
introducing
clusters
neuronopathic
4612del16
eco
movement
utility
utilized
separated
bacteri
greatest
helix
mortality
q32
##keeping
ankle
##opathies
nearby
subsets
798
##ipoproteinemic
influencing
approaches
urban
surviving
cardiomyocyte
aberrantly
fifty
illeg
mucosa
##midine
replacing
replacements
converting
canadians
myelination
hmgi
c4b
c4a
necdin
raising
raises
vascular
widespread
unusually
esters
neurodegeneration
neurodevelopment
hepatoma
microsatellites
austrian
easy
rho
possessed
possesses
sibship
cyclin
cyclohydro
loop
xpter
##304
exclude
weakly
spots
spotting
interspecific
crypt
d1s42
precursors
digeor
sensory
xp22
thymine
prevents
prevented
collabor
cytosolic
reflects
reflecting
establishes
laboratories
chemotaxis
amyloidotic
##57kip
exclusive
chima
restores
amelx
improvement
noncar
increasingly
eliminated
eliminate
eliminating
eliminates
necessarily
bani
midline
nadph
ribonucleoprotein
turn
exception
constitute
constituted
subclass
subcloned
multimer
objectives
atherogenic
gonococcal
morphological
rarely
sf9
##269
integ
##amicin
leucine
coexpression
coexisting
correction
employing
vlcfas
periodontal
azadc
cousin
dp71
dp140
karyotypes
prolidase
contact
fructose
placed
placing
neurofibromatosis
relevance
osteolysis
permitted
permitting
sardinian
accompanying
hyperphenylalanin
caspase
cascade
jaw
mhp
opsonization
pulse
rodent
salvage
slowly
verbal
##333
##ocortin
##oderma
adhes
uncover
diffuse
schw
modifying
telomere
delineate
daughters
mutagenized
craniosyn
aimed
bulgarian
false
gives
matera
ranged
##359
##3del5
inactivate
analogous
homogeneous
superf
supernum
discrep
discoidin
2532
2531
syntenic
corresponds
fingerprint
integrated
neutrophil
neisseria
basal
dimorph
handicap
tetra
yielding
reinf
dissemin
rescue
rescued
achilles
pheochromocyt
transforming
abundant
scotopic
hypermethylated
trps1
blindness
extraordin
require
measurement
unexpectedly
attempted
catalyze
catalyzes
psoriatic
coproporphyrinogen
reproductive
chondrodysplasias
adipose
born
cfa
category
epstein
epsilon
wayne
deficit
deficits
progenitor
progenitors
alloantigen
nevertheless
recurring
recurrence
compensate
compensatory
addison
paralleled
metastatic
metastasis
adrenocortical
systematically
removal
contraceptive
contraceptives
trigger
buffer
cochin
d5h4s
grmd
gm1
just
mixed
netrin
rd2
r408w
splen
tagged
reasons
changed
enlarged
spg2
subtotal
interpret
highlighting
antisense
retrospective
monooxygenase
hyperalphalipoproteinemic
electrophysiological
prompted
cytoskeletal
d11s151
d14s280
##hydration
portuguese
ophthalmic
unambiguously
aqueduct
ceph
eukaryotic
pilomatric
punctate
tga
##tagmus
##rilineal
thermal
withdrawal
genealogical
propagation
disturbance
seizures
transporting
identifies
phenomenon
sparse
unreported
diverg
abrogated
col4a4
scalp
descend
subpopulation
predominance
recommended
conflicting
multisystem
remodeling
clefts
underlies
hydrophobic
avaii
bovine
prominent
protooncogene
protocols
postnatal
gastrulation
arthralgias
oligodendrocytes
ascertainment
behaviour
ulcerative
temperature
reintroduction
convulsions
ultrastructural
hodgkins
inappropriate
7883del5
bgli
barr
branches
czech
cumulative
cosegreg
centimorg
dereg
ductal
dfsp
d9s15
feline
fadd
gentamicin
g130v
gaze
housekeeping
i65t
ketohex
k247q
kabyle
lathosterol
loxp
lrp5
l236p
lambda
milk
m694v
nystagmus
nlaiii
ncoi
omim
picture
russi
rabbit
routine
r231h
r279w
soft
seminoma
tnfrsf
t416p
torsion
vibration
ymao
##pyrimidine
##feld
threatening
##inflammatory
ingestion
tolerance
forkhead
prophylactic
provisionally
conversely
disappearance
atelosteogenesis
betica
strengthens
orissa
appreciable
assembled
energy
deterioration
adapted
inconclusive
polyclonal
immediately
univers
unlinked
aboriginal
parathyroid
metalloprote
nonpolyposis
traffic
manuscript
immunoglobulin
immunofluores
endometrial
neuropsych
somewhat
radioresistant
radioimmunoassay
hyperacetylation
hypothyroidism
palestinian
dxs144e
cgp57148b
4612del165
illegitimate
cyclohydrolase
digeorge
collaborative
##57kip2
supernumerary
disseminated
pilomatricomas
ketohexokinase
tnfrsf11a
07
1b
1p
1c2
2a
2j
212
3p
3h
3q
320
3q22
3beta
3p25
4q
418
4q21
5q
563
574
5q21
564
682
610
617
7c
74
7a
727
7q22
739
7delg
736
800
8q21
93
96
914
988
968
ah
aug
aars
alex
away
bed
bur
bow
bab
bif
bact
brough
barc
batter
bss
blue
cv
ces
ctr
cca
cited
cry
c86
d8
dyt
dating
dide
done
dental
dosa
daf
d8s
daltons
e6
eti
ease
east
eso
efficient
e39
egg
fs
fd
fit
foc
food
f17
fix
falc
focal
fused
flav
f304
gut
ging
gab
gout
gct
gcp
g19
gcg
hi
hip
host
hiv
hns
hcp
hcc
ig
ia
ip
iran
ili
i82
i97
ialpha
jo
jer
jamp
ks
kon
kam
k285
la
lq
lac
lum
light
lying
l44
lung
mul
moun
mong
math
mrel
mend
mating
m27
mpk
mre11
munk
ns
nat
nos
npl
nab
nag
nak
ntd
nf1
oh
orom
okh
pc
ps
p5
pw
pin
pem
pow
pbl
prel
p27
ppk
ptd
p53
p25
plex
p36
pineal
p183
p57kip2
qual
q11
r3
r5
ru
r1
ren
rul
rig
rim
round
rend
rup
right
roles
raf
rud
r21
r26
raine
rumps
r333
sic
sul
sts
sem
slu
spher
srp
s22
sagu
tab
tct
taken
tmt
tube
u2
uv
ve
vi
vac
vld
vill
viable
wc
wa
wer
water
wors
wied
xq
xx
xj
xvi
y5
yam
yai
yfh1p
zon
##ev
##ees
##eel
##eum
##eim
##east
##eficial
##eiii
##tel
##tly
##tog
##tte
##tage
##tonic
##tments
##tub
##tabil
##tuit
##rn
##r3
##ring
##rect
##ryl
##rently
##rb3
##g1
##get
##gers
##glu
##gag
##gian
##garia
##gium
##ned
##nith
##nitin
##nets
##c4
##ck
##cum
##cessive
##c42
##cement
##carb
##codon
##copy
##cervical
##iy
##iar
##iometry
##iube
##iatric
##s9
##sp
##sing
##s13
##strin
##ls
##lers
##lh1
##lbut
##yan
##yth
##yrate
##99
##94
##9h
##943
##4d
##4b
##4del
##482
##32
##31
##3ap
##395
##343
##3t3
##6c
##61s
##dp
##dm
##dong
##down
##55
##bc
##b1
##bic
##bid
##bol
##b27
##bban
##ah
##aus
##aden
##aemia
##oat
##oich
##oath
##ovi
##oples
##ofib
##pal
##pan
##pir
##pab
##ptive
##pogenesis
##vation
##vantage
##vf1
##vasive
##hin
##his
##hun
##hak
##hex
##hman
##hashi
##heim
##mph
##mologic
##mix
##m343
##uis
##uation
##uity
##ubl
##uds
##util
##udes
##ufficient
##ki
##ky
##kd
##kog
##kcg
##karyotic
##1t
##1g
##1q
##0g
##01
##fly
##fection
##focal
##72
##7w
##75del
##zz
##zman
##zind
##zhou
##zheim
##xiliary
##xr3
##wa
##wf
##857
##jes
##tia
##tite
##titive
##tify
thor
thresh
##enn
##ened
##ention
##entic
##enay
##enins
##enfeld
##onom
##onoun
##onary
##onist
##onize
##onite
##onatal
##onto
##ero
##erance
##erful
##ina
##inis
##ination
##inary
##invasive
##edia
##esth
##estic
##estim
##esterol
##escence
##escribed
##essively
ina
inexp
##aling
##alus
##alase
##alange
##alley
##alescence
anhyd
##orb
##oris
##orid
##orce
##orism
##orhin
##atca
##atases
##atoma
##attle
##atrilineal
##atofib
##atzman
##ann
##ani
##andi
##anosine
##rose
##rogen
##rogens
##isis
##isable
##astin
##asomy
##asite
##astinal
##ascular
##asier
##itate
##itment
##itative
##itour
##ico
##icemia
##ictly
##aran
##ardic
andalus
androgen
##elic
##elly
##eland
##elian
##elona
##utational
##ece
##ectiv
##ositis
##osidase
##osano
##reted
##reement
##retinal
##reoretinal
##ingolipid
##ust
##usive
mutat
toes
toure
tolbut
##etase
##etosis
##ithm
##ithin
gender
genitour
##ulum
##ulose
##ulates
##ulator
##ulins
##ulae
##ulinemia
##ulatus
##ulovirus
##ots
##otomy
##otrop
##otope
##atide
##romolec
##vements
##lea
##lem
##leu
##leen
real
retic
rever
reex
rehydration
genehun
##ident
##idyl
alur
alde
albe
altog
albic
alzheim
##iles
##ilater
##ilian
##illa
##amily
##amylase
##ocity
##ocep
##ocardi
##olu
##olab
##olcald
##oloids
##acer
##acil
##acting
##acities
##accades
##acryl
##acosano
##aculatus
forss
fortuit
deoxy
depen
devised
proc
protr
proven
proof
propri
proinflammatory
prokaryotic
isotope
exost
exencephal
##eremic
##uring
##uries
##urally
##uricemia
##uridyl
chi
cho
char
chyl
chore
chall
chie
chick
chedia
##phate
##phage
##unte
##ysp
##ria
##rived
##riever
##riages
##rigu
aspar
ascribed
asyn
##ype
concur
congenit
##ucs
##ucking
disad
discri
disass
disper
dispar
displac
dischar
wash
##ters
##terin
##tered
##teroid
ongo
haim
haad
haeiii
habban
##odi
##odop
##odactyly
##ume
##umb
##ument
##umns
##umption
##sial
##sile
##thesis
##emble
##ematic
##emag
##emias
##emann
##sex
atg
ata
atoms
##ression
##ressed
sey
sep
seattle
##iae
suff
suffici
suitable
resour
residence
resemble
stret
stoich
##opsy
##opterin
wheel
##iration
##iring
##irly
complication
##ogel
##ainage
##ineered
##tinin
action
acting
acyltransferase
allotyping
##tradi
##truction
##antages
phi
phyt
##gevity
##ellent
##nai
##nayan
mae
mabs
maher
mazind
##osomally
##pora
##ficient
orth
ornith
##izations
##izable
cll
clari
clues
club
applic
apart
applied
##icals
##versial
##ionic
transformation
transcarb
nex
##imum
##imaculatus
recessively
##troint
##trogens
pointing
locates
shed
##astoma
chromatid
lee
lear
lepo
le39
leave
lehman
cah
caps
register
registry
regimen
##cap
braz
brg1
amgx
carnitin
cellulose
compan
comprom
compelling
envelop
encephal
detach
##ylases
dmah
ado
adop
adduc
adapt
add1
admix
adolcald
spe
sp1
spine
sparing
spleen
##oreg
stuve
syndromal
incons
notic
polyne
polyacryl
polyuridyl
##zygotic
notable
imbal
implied
uns
unm
unin
unrec
##stances
prevention
dystonic
##genetic
dihydro
divers
diphosphate
diameter
##dei
##apill
##apleg
##aponto
sequential
##cein
frasier
preserved
presently
heterochrom
##ibility
abol
abdom
##iping
sugar
sugars
##tory
usa
usual
consumption
breeding
##ogenes
##ogenital
##andra
##androgens
ara
arab
arrang
arising
paris
parametric
parasite
parapleg
columns
defense
##ologies
pleck
plaus
plucking
peric
pert87
perimetry
sitosterol
sci
scand
scott
scatter
scn5
scoliosis
threefold
##iform
destabil
destruction
subtle
subretinal
domestic
##wegian
marriages
invaria
invasive
hej
height
metal
metaponto
##gnosis
respective
respiration
##chron
##cholic
repetitive
interview
intervention
interacting
intersex
musculus
coil
coop
coast
coag
coup
coalescence
hypom
hypodon
cd4
cd3
cds1
cdmd
cdc42
##titute
nonket
nondeletion
nondis
nonradi
nonmus
nonhom
noninvasive
myoblast
myogenesis
myoblasts
myocardi
tracts
trisphosphate
trunk
probed
##aguchi
commitment
newbor
##ermined
104
103
102
108
10th
10c2
10q23
##renosum
autonom
autosomally
glut
glb1
complements
forming
152
151
15q
specify
##osphingolipid
develops
somatos
coronal
cortex
coronary
nucleic
nucleoside
commonly
##otient
strictly
##ectional
intram
intrav
intrins
intrachrom
acidic
116
11d
111
110
117
118
11q14
1135
11q23
##uppression
hemostasis
hemangioblastoma
##olein
##olemia
phospholipid
demonstrable
##onderance
serological
serosal
serositis
herc2
modes
modulated
modules
modulating
modifies
infant
undescribed
##eper
1422
1453
1444
feas
febri
##aternity
lived
livers
effort
effectiv
indication
indicative
indicator
ctnt
ctls
125
aged
agonist
agreement
##iana
##sette
c223
c2c12
practic
prkcg
pronoun
13c
135
1311
##oxylase
##oxalase
##uctuation
hdac
severities
lowest
membran
estrogens
##eleton
responsi
intrigu
biol
biosyn
##anged
emd
emb
controversial
sixty
cdna8
elong
elastin
elusive
190
19p13
1974
1988
##rade
##raft
##000
insufficient
institute
knobl
knees
knuds
##115
##110
amongst
afm343
recombined
##ultimate
evol
jean
overt
skill
confused
methyl
irrin
smith
smalley
##centric
glucosidase
redef
##q25
multifactor
multiply
multifocal
centuries
comparative
compartments
adenoma
##rosis
##rosarcomas
homologs
directed
ends
endocytic
endoplasmic
endoderm
endocrine
endothel
norrin
norwegian
##ilepsy
##timately
somatically
expansile
neuroepithel
neurogenetic
catenins
##oidal
antiandrogens
localizes
##liari
analyzing
structurally
179
172
178
17p13
17p11
examinations
truncations
189
183
186
180
18q
patches
patella
164
165
161
160
1675del
linear
linehan
##ailability
reminis
methodological
methodologies
obese
##adily
##phages
whereby
folding
##ediatric
hybridized
##otherapy
##enging
alpha1
retention
retriever
clea
##rophosphate
classed
determinants
decade
decarb
epigen
epilepsy
month
monochrom
monoph
monocytic
monomer
mononuclear
206
phenotyping
underestim
cytometric
##pered
##perth
##perdown
cardiov
hydrocephal
selectively
##activity
##ognized
hexacosano
follows
sporadically
##27r
hprtperth
304
303
cerevis
##bert
##berty
particle
hungarian
rbc
rbap
refined
candida
dxs20
radiograph
radioactive
radiolab
2546
aven
resides
intervals
drd
drw2
drastic
drainage
##availability
##tilization
explo
explor
explore
mediates
mediators
mediastinal
testes
hepatitis
florid
fluctuation
##iva
implicit
implication
partly
platysp
suppressed
terminals
hydroxy
valine
synovi
hyperglyc
hypertel
hyperuricemia
272
278
glycos
glycosphingolipid
tsuchi
putatively
##ohemag
c6q0
sibpair
sibpal
##ophthal
##ophalange
##1257
prime
vitreoretinal
##insc
282
2871
crc
##ensitive
##raphs
##lington
##rocyte
recognizes
undersc
cyp3a
d19s
delgag
penultimate
sulfatases
atp4b
apoai
symporter
symbol
292
291
219
lesser
maintained
mainland
triad
triolein
potenti
degrade
arg24
arg778
arg247
definite
accumulated
higashi
lysine
lysosomes
faster
purification
purines
variably
thrombotic
thrombophil
236
237
2302
c3b
initiates
waspbri
preceding
considerations
402
quite
quotient
slit
slot
viscer
prostatic
stopcodon
meningococc
guanosine
promote
promotor
xq24
xq21
##rams
##veness
##180
0006
hmlh1
limbs
##fully
propositi
designation
260
ethyl
protect
protuber
assayed
situation
supportive
exhibits
spermseg
1992
1991
synthes
synthase
synthetase
baculovirus
fingers
opi
alms1
isoenzym
explains
postp
postcervical
postzygotic
##protein
##keratoma
requiring
advances
advantages
dxs14
eventually
arginine84
technically
801
flux
##103
deaths
cagliari
gastroint
persistent
persistently
peptid
##rupted
proteolytic
proteolipoprotein
##odeoxy
microcephaly
microtub
dxs77
embryogenesis
mosaics
240
minigen
minimum
peoples
organisms
ionian
##259
chori
chorionic
transfers
facilitated
facilitates
periods
pseudogenes
361
360
benef
beneficial
cgkd
tends
tended
proliferated
clustered
apoc1
usefulness
399
390
cpnets
cpxr3
d2s
d2s1
denmark
ecb27
movements
ratios
work
worthy
bacteria
belgium
grew
helps
mort1
morning
morbid
sets
youngest
##17q
neonates
##iminary
measures
measuring
essentially
dxys4
dxys5
construction
constructs
fluorescein
349
macula
macromolec
melanocortin
swr
swiss
switch
##q34
quantity
quantitation
491
soon
stimulatory
uracil
##okinetic
chemoat
chemotherapy
aspartate
fractions
undetermined
survive
survived
collagenous
376
639
downregulation
fhc
fifteen
nt943
##74v
replaces
carbonic
traits
hemizygote
modern
generational
secretory
433
cathodal
ferric
fertility
fertilization
glyoxalase
gametic
released
wider
constitutionally
esterase
hepatomegaly
promoters
381
854a
axenfeld
easily
hormonal
killing
kilodal
migrants
nmjs
ptb
rheum
rhodop
thyrocytes
##ensory
ala30
ala43
conductin
leu359
overexpressing
electrophoretically
cycling
3000
harm
loading
louis
puzz
puberty
ube3ap
##rhoe
##396
##309
excluding
displays
seemed
differentiated
d1s27
d1s24
d1s20
d1s413
cosmids
portions
circum
glu285
media
medical
niece
solely
sacro
sacii
saccha
terms
thymocytes
neoplasm
##iparum
collection
##anguineous
palmitic
476
fava
favour
osnj
typhi
##rontonasal
##579
excellent
amelogenin
adjunct
##peptid
##roscopy
hundreds
criterion
visualization
necessity
document
documents
kidneys
bannayan
hhai
keratitis
pyrin
pyoderma
pyrophosphate
ribopro
islands
islanders
exceptions
checkpoints
diaspora
consanguinity
multimeric
northwestern
cotransfection
immunohistochemistry
atherogenesis
enable
gonosomal
ligase
morphogenesis
rarer
rarity
ultimately
updated
##s37
nephritis
nephew
placebo
corrected
catalase
belongs
illness
kilobase
granulocytic
zellwegers
786
aaa
dpc4
driven
drift
d11s3
hamart
hampered
kinetics
##oclast
aspects
stepwise
neutral
fructokinase
heterodim
places
centered
neurofibrosarcomas
derivation
southeast
ndnl1
ancestors
cyp2c19
osteoclast
acetylhex
accompanies
693c
772
cassette
gangrenosum
hsd
keeping
opsonize
salmon
tau
verify
w427r
##uitary
##ondrogenesis
toxicity
toxicosis
referred
continued
resembles
resemblance
stabilized
stabilizing
accuracy
transgenes
england
schatzman
ivs5
delineation
delineated
delineates
mitotically
sweden
biopsied
viruses
episodic
enabling
yemenites
electroretinography
aims
bulgaria
borders
kappab
layer
layers
layered
rad51
radicals
terriers
##minate
angiography
profoundly
existing
regardless
britain
enhances
enhancement
occasion
interfamilial
specimen
superior
helpful
harboring
illustrate
##aptoglobinemic
fgfr3
fgfr2
basic
dimension
d13s13
hpaii
iddm
misdia
pastoris
success
successive
templ
##hyde
problem
dissociation
achie
achondrogenesis
##tractant
photo
magnitude
unchanged
preparation
lipids
synergize
extracted
opposed
cystadenomas
epidemiological
believe
measurements
virtual
grandfathers
mismatches
reproduce
reproduced
subgroups
081
adipogenesis
borjes
cfnd
categories
d22s66
d22s75
d22s259
falls
hours
lecithin
rationale
voltage
volunte
volume
injected
injection
injury
instance
##artz
convinc
alloantibodies
address
adolescence
impact
myeloid
global
inferred
infertility
adrenocortic
pathophysiological
removing
remarkable
participating
participates
triggs
geographical
nih3t3
atherosclerotic
craniofrontonasal
questionnai
pancreas
ventilatory
homogentisic
build
cochlea
grass
justify
network
r408q
splenic
##bp5
##ovak
##organ
reason
deposition
deposits
changing
connection
connective
concordant
enlargement
desmoid
desmoplastic
interpreted
interferon
highlight
antisaccades
retrospectively
refining
refinement
ivs14
ivs12
hyperalphalipoproteinemia
electrophysiology
d17s857
delayed
maintaining
contributions
arg170
362arg
362ser
grandmother
grandmatrilineal
cytoskeleton
tyr231
tyr180
israelis
d14s291
angioedema
angiokeratoma
d13s314
d13s316
portugal
ophthalmologic
simultaneously
